unsigned char sine_model_tflite[] = {
  0x1c, 0x00, 0x00, 0x00, 0x54, 0x46, 0x4c, 0x33, 0x14, 0x00, 0x20, 0x00,
  0x1c, 0x00, 0x18, 0x00, 0x14, 0x00, 0x10, 0x00, 0x0c, 0x00, 0x00, 0x00,
  0x08, 0x00, 0x04, 0x00, 0x14, 0x00, 0x00, 0x00, 0x1c, 0x00, 0x00, 0x00,
  0x98, 0x00, 0x00, 0x00, 0xf0, 0x00, 0x00, 0x00, 0x14, 0x14, 0x00, 0x00,
  0x24, 0x14, 0x00, 0x00, 0x60, 0x19, 0x00, 0x00, 0x03, 0x00, 0x00, 0x00,
  0x01, 0x00, 0x00, 0x00, 0x10, 0x00, 0x00, 0x00, 0x00, 0x00, 0x0a, 0x00,
  0x10, 0x00, 0x0c, 0x00, 0x08, 0x00, 0x04, 0x00, 0x0a, 0x00, 0x00, 0x00,
  0x0c, 0x00, 0x00, 0x00, 0x1c, 0x00, 0x00, 0x00, 0x3c, 0x00, 0x00, 0x00,
  0x0f, 0x00, 0x00, 0x00, 0x73, 0x65, 0x72, 0x76, 0x69, 0x6e, 0x67, 0x5f,
  0x64, 0x65, 0x66, 0x61, 0x75, 0x6c, 0x74, 0x00, 0x01, 0x00, 0x00, 0x00,
  0x04, 0x00, 0x00, 0x00, 0x90, 0xff, 0xff, 0xff, 0x09, 0x00, 0x00, 0x00,
  0x04, 0x00, 0x00, 0x00, 0x08, 0x00, 0x00, 0x00, 0x6f, 0x75, 0x74, 0x70,
  0x75, 0x74, 0x5f, 0x30, 0x00, 0x00, 0x00, 0x00, 0x01, 0x00, 0x00, 0x00,
  0x04, 0x00, 0x00, 0x00, 0xfa, 0xec, 0xff, 0xff, 0x04, 0x00, 0x00, 0x00,
  0x0c, 0x00, 0x00, 0x00, 0x6b, 0x65, 0x72, 0x61, 0x73, 0x5f, 0x74, 0x65,
  0x6e, 0x73, 0x6f, 0x72, 0x00, 0x00, 0x00, 0x00, 0x02, 0x00, 0x00, 0x00,
  0x34, 0x00, 0x00, 0x00, 0x04, 0x00, 0x00, 0x00, 0xdc, 0xff, 0xff, 0xff,
  0x0c, 0x00, 0x00, 0x00, 0x04, 0x00, 0x00, 0x00, 0x13, 0x00, 0x00, 0x00,
  0x43, 0x4f, 0x4e, 0x56, 0x45, 0x52, 0x53, 0x49, 0x4f, 0x4e, 0x5f, 0x4d,
  0x45, 0x54, 0x41, 0x44, 0x41, 0x54, 0x41, 0x00, 0x08, 0x00, 0x0c, 0x00,
  0x08, 0x00, 0x04, 0x00, 0x08, 0x00, 0x00, 0x00, 0x0b, 0x00, 0x00, 0x00,
  0x04, 0x00, 0x00, 0x00, 0x13, 0x00, 0x00, 0x00, 0x6d, 0x69, 0x6e, 0x5f,
  0x72, 0x75, 0x6e, 0x74, 0x69, 0x6d, 0x65, 0x5f, 0x76, 0x65, 0x72, 0x73,
  0x69, 0x6f, 0x6e, 0x00, 0x0d, 0x00, 0x00, 0x00, 0x20, 0x13, 0x00, 0x00,
  0x18, 0x13, 0x00, 0x00, 0x88, 0x12, 0x00, 0x00, 0x6c, 0x12, 0x00, 0x00,
  0xdc, 0x11, 0x00, 0x00, 0xcc, 0x01, 0x00, 0x00, 0x3c, 0x01, 0x00, 0x00,
  0xac, 0x00, 0x00, 0x00, 0xa4, 0x00, 0x00, 0x00, 0x9c, 0x00, 0x00, 0x00,
  0x94, 0x00, 0x00, 0x00, 0x74, 0x00, 0x00, 0x00, 0x04, 0x00, 0x00, 0x00,
  0xaa, 0xed, 0xff, 0xff, 0x04, 0x00, 0x00, 0x00, 0x60, 0x00, 0x00, 0x00,
  0x10, 0x00, 0x00, 0x00, 0x00, 0x00, 0x00, 0x00, 0x08, 0x00, 0x0e, 0x00,
  0x08, 0x00, 0x04, 0x00, 0x08, 0x00, 0x00, 0x00, 0x10, 0x00, 0x00, 0x00,
  0x24, 0x00, 0x00, 0x00, 0x00, 0x00, 0x06, 0x00, 0x08, 0x00, 0x04, 0x00,
  0x06, 0x00, 0x00, 0x00, 0x04, 0x00, 0x00, 0x00, 0x00, 0x00, 0x00, 0x00,
  0x0c, 0x00, 0x18, 0x00, 0x14, 0x00, 0x10, 0x00, 0x0c, 0x00, 0x04, 0x00,
  0x0c, 0x00, 0x00, 0x00, 0x2e, 0xa5, 0x56, 0x26, 0x72, 0xc5, 0x4a, 0x99,
  0x02, 0x00, 0x00, 0x00, 0x02, 0x00, 0x00, 0x00, 0x04, 0x00, 0x00, 0x00,
  0x06, 0x00, 0x00, 0x00, 0x32, 0x2e, 0x32, 0x31, 0x2e, 0x30, 0x00, 0x00,
  0x16, 0xee, 0xff, 0xff, 0x04, 0x00, 0x00, 0x00, 0x10, 0x00, 0x00, 0x00,
  0x31, 0x2e, 0x35, 0x2e, 0x30, 0x00, 0x00, 0x00, 0x00, 0x00, 0x00, 0x00,
  0x00, 0x00, 0x00, 0x00, 0x7c, 0xe8, 0xff, 0xff, 0x80, 0xe8, 0xff, 0xff,
  0x84, 0xe8, 0xff, 0xff, 0x3e, 0xee, 0xff, 0xff, 0x04, 0x00, 0x00, 0x00,
  0x80, 0x00, 0x00, 0x00, 0x04, 0x7d, 0xb0, 0xbd, 0x00, 0x00, 0x00, 0x00,
  0x00, 0x00, 0x00, 0x00, 0x00, 0x00, 0x00, 0x00, 0x00, 0x00, 0x00, 0x00,
  0x00, 0x00, 0x00, 0x00, 0x00, 0x00, 0x00, 0x00, 0x00, 0x00, 0x00, 0x00,
  0x9f, 0xff, 0xa9, 0xbe, 0x00, 0x00, 0x00, 0x00, 0x00, 0x00, 0x00, 0x00,
  0x00, 0x00, 0x00, 0x00, 0x00, 0x00, 0x00, 0x00, 0x1a, 0xe7, 0x3d, 0x3d,
  0x56, 0xd7, 0x68, 0xbd, 0x00, 0x00, 0x00, 0x00, 0x34, 0x33, 0x8e, 0xbe,
  0x00, 0x00, 0x00, 0x00, 0x00, 0x00, 0x00, 0x00, 0x00, 0x00, 0x00, 0x00,
  0xca, 0x28, 0x18, 0xbe, 0x00, 0x00, 0x00, 0x00, 0x00, 0x00, 0x00, 0x00,
  0x00, 0x00, 0x00, 0x00, 0xcc, 0x17, 0x48, 0x3b, 0x8d, 0x96, 0x94, 0xbd,
  0xaf, 0x9c, 0x91, 0x3d, 0xad, 0x5d, 0xd7, 0x3d, 0xbf, 0xa6, 0x70, 0x3c,
  0x95, 0x26, 0x61, 0xbe, 0xf9, 0x74, 0x09, 0xbe, 0x8a, 0xad, 0x60, 0x3d,
  0xca, 0xee, 0xff, 0xff, 0x04, 0x00, 0x00, 0x00, 0x80, 0x00, 0x00, 0x00,
  0x91, 0xb5, 0xc6, 0x3e, 0xe0, 0xfd, 0x68, 0xbc, 0x06, 0x00, 0x9b, 0xbe,
  0x1c, 0x52, 0xb6, 0xbd, 0xe0, 0x2c, 0x8e, 0xbd, 0xd0, 0x7c, 0x72, 0xbd,
  0x20, 0x95, 0x47, 0xbc, 0xb6, 0x8d, 0x87, 0xbe, 0x44, 0x20, 0xc3, 0x3e,
  0x9c, 0xe5, 0x46, 0xbe, 0xbe, 0x87, 0x1e, 0xbe, 0x08, 0x12, 0x55, 0xbd,
  0xdc, 0x13, 0xb6, 0xbd, 0x12, 0x22, 0x03, 0x3f, 0xec, 0xe4, 0x9f, 0x3e,
  0x3f, 0x48, 0x8a, 0xbe, 0x7a, 0x79, 0x17, 0x3f, 0x20, 0x4c, 0xd9, 0xbd,
  0x50, 0xa2, 0x54, 0xbd, 0x25, 0x3e, 0x6f, 0xbe, 0x68, 0xf7, 0xed, 0x3e,
  0xf8, 0x0e, 0x83, 0xbd, 0x3c, 0xe8, 0x7e, 0xbe, 0x70, 0x74, 0x7a, 0xbe,
  0x0b, 0xcc, 0x8a, 0x3e, 0xdd, 0xb1, 0x91, 0x3e, 0xc9, 0x54, 0x26, 0xbc,
  0x0d, 0x5a, 0xa8, 0x3e, 0x71, 0x86, 0x1a, 0x3f, 0x2e, 0xf6, 0x13, 0x3f,
  0x43, 0xde, 0xf5, 0x3e, 0x6b, 0xa7, 0x1c, 0x3f, 0x56, 0xef, 0xff, 0xff,
  0x04, 0x00, 0x00, 0x00, 0x00, 0x10, 0x00, 0x00, 0xe3, 0xca, 0x46, 0x3e,
  0xe0, 0x8c, 0x0c, 0xbc, 0x3c, 0x0a, 0xbe, 0x3d, 0xc0, 0x9e, 0xff, 0x3b,
  0xe6, 0xa6, 0x56, 0xbe, 0x04, 0x4a, 0xbc, 0xbd, 0x2a, 0x1a, 0x82, 0xbe,
  0x12, 0xe4, 0x92, 0xbd, 0x3d, 0xa0, 0x8b, 0xbe, 0x16, 0xfe, 0x93, 0xbe,
  0xf5, 0xee, 0x96, 0x3e, 0x32, 0x11, 0x5e, 0x3e, 0x43, 0xfe, 0x86, 0x3e,
  0x0a, 0x4b, 0xf6, 0x3d, 0x20, 0xc6, 0x4c, 0x3c, 0x76, 0x98, 0x3e, 0x3e,
  0x03, 0xa2, 0x5d, 0xbe, 0x4a, 0x7a, 0x50, 0xbe, 0x61, 0xe2, 0x1b, 0xbe,
  0x10, 0x65, 0x0e, 0x3e, 0xd0, 0xe2, 0x15, 0x3d, 0xb0, 0xf4, 0xf3, 0x3d,
  0xa8, 0xb1, 0x46, 0xbd, 0x40, 0x06, 0x1e, 0x3c, 0x6a, 0x35, 0x8f, 0x3d,
  0x08, 0xfd, 0x64, 0xbe, 0x25, 0xcb, 0x80, 0x3e, 0xd1, 0x1d, 0x2b, 0x3e,
  0xdb, 0xbd, 0xa9, 0xbe, 0xd2, 0xa4, 0x5d, 0x3e, 0x4e, 0x63, 0x0b, 0xbe,
  0x92, 0x0d, 0x72, 0xbe, 0xd4, 0xde, 0x69, 0xbc, 0xea, 0x3d, 0xfc, 0xbd,
  0xa4, 0x72, 0x4b, 0xbe, 0x30, 0x22, 0x85, 0xbc, 0x30, 0xb2, 0x3b, 0x3e,
  0xa0, 0x99, 0x1d, 0x3e, 0x50, 0x92, 0x9c, 0xbe, 0x6c, 0x41, 0xa3, 0xbd,
  0x2b, 0x1f, 0x32, 0xbe, 0x5f, 0x12, 0x90, 0x3e, 0xf0, 0xd4, 0x07, 0xbe,
  0x20, 0xef, 0xdb, 0x3d, 0x4e, 0x20, 0x81, 0xbe, 0x8f, 0xd1, 0x75, 0x3c,
  0x7a, 0xc0, 0x79, 0x3e, 0x8e, 0xf9, 0xe0, 0xbd, 0xe0, 0x09, 0x25, 0x3d,
  0x20, 0x6a, 0xc7, 0x3c, 0x50, 0x16, 0xff, 0xbc, 0x08, 0x19, 0xc0, 0x3d,
  0x76, 0xed, 0x9b, 0xbe, 0x1e, 0x6e, 0x67, 0x3e, 0x00, 0x98, 0x98, 0xb9,
  0xd5, 0xba, 0x85, 0x3e, 0x6b, 0xdf, 0x50, 0x3b, 0x66, 0xda, 0x85, 0x3e,
  0x67, 0x3b, 0x72, 0xbe, 0xdc, 0xcd, 0x4e, 0x3e, 0xcc, 0xf3, 0xd2, 0xbd,
  0x02, 0xba, 0xcc, 0xbd, 0x0d, 0x8e, 0x39, 0xbe, 0x90, 0x17, 0x51, 0xbe,
  0xca, 0x7e, 0xd0, 0xbe, 0xe4, 0x50, 0xd6, 0x3d, 0x6a, 0x95, 0x4b, 0xbe,
  0x3a, 0x06, 0x26, 0x3e, 0x54, 0xaf, 0x21, 0x3e, 0xdd, 0x2b, 0x80, 0xbe,
  0xa3, 0x37, 0x8f, 0xbe, 0xa1, 0x94, 0x83, 0x3e, 0x9a, 0xe6, 0x99, 0xbe,
  0xf2, 0xb8, 0x6b, 0x3e, 0x40, 0x3f, 0x33, 0x3e, 0x1e, 0x86, 0xa2, 0xbd,
  0x80, 0xfe, 0x0d, 0x3b, 0x4d, 0x0a, 0x9b, 0x3d, 0x2d, 0x5c, 0x03, 0xbf,
  0x70, 0x5e, 0x93, 0x3d, 0x59, 0x68, 0x35, 0xbe, 0x40, 0x67, 0xc6, 0x3d,
  0xb4, 0x74, 0x9b, 0x3d, 0x31, 0x6f, 0x89, 0x3e, 0xb6, 0x96, 0xcc, 0xbe,
  0xf7, 0x45, 0x94, 0xbe, 0xba, 0x42, 0x3e, 0xbe, 0x42, 0xa9, 0x5f, 0x3e,
  0xa0, 0xc5, 0x22, 0xbd, 0x3a, 0x82, 0x8d, 0xbe, 0x22, 0x58, 0x62, 0x3e,
  0xa1, 0x56, 0x7f, 0x3e, 0x7a, 0x19, 0xe3, 0x3b, 0x1a, 0x4c, 0xb5, 0xbe,
  0x2b, 0x01, 0x71, 0xbd, 0x26, 0x4c, 0xa2, 0x3e, 0xa0, 0x6c, 0xd5, 0x3c,
  0xa0, 0xfc, 0x48, 0xbe, 0x39, 0xc3, 0x5a, 0xbe, 0x64, 0x4a, 0xa8, 0xbd,
  0xda, 0x78, 0x1e, 0x3e, 0x59, 0xb1, 0x96, 0x3e, 0x08, 0x39, 0x80, 0xbe,
  0xfe, 0xd9, 0x88, 0xbe, 0x78, 0x6d, 0x48, 0x3e, 0xb8, 0x48, 0x45, 0x3d,
  0x90, 0x34, 0x05, 0xbd, 0xfc, 0x98, 0x41, 0x3e, 0x5d, 0xe8, 0x8b, 0x3e,
  0x24, 0x78, 0x3b, 0xbe, 0xb0, 0x5d, 0xf9, 0x3c, 0x22, 0x8d, 0x14, 0xbe,
  0xbe, 0xed, 0x2f, 0x3d, 0x26, 0xd7, 0x60, 0x3e, 0x50, 0x4b, 0x0a, 0xbd,
  0xa3, 0xe4, 0x82, 0xbe, 0x22, 0x5e, 0x44, 0xbe, 0x08, 0xab, 0xf1, 0xbd,
  0x4f, 0x49, 0x87, 0xbe, 0x24, 0x76, 0x2c, 0x3e, 0x05, 0xc3, 0x89, 0x3e,
  0x83, 0xe1, 0x1f, 0xbe, 0x41, 0xe7, 0xf7, 0x3d, 0x5c, 0xa1, 0xfc, 0xbd,
  0xd6, 0xe3, 0x06, 0xbe, 0x7e, 0xb8, 0x49, 0x3e, 0x8a, 0xfe, 0x40, 0x3d,
  0x7b, 0xe7, 0x96, 0xbd, 0x04, 0x19, 0x1f, 0xbf, 0x3a, 0x03, 0x47, 0x3e,
  0xc0, 0x6e, 0x51, 0x3d, 0xe0, 0x6c, 0xf2, 0x3c, 0x8c, 0x01, 0xcd, 0xbd,
  0x58, 0x0b, 0x10, 0x3e, 0xf0, 0x4a, 0x16, 0x3e, 0x90, 0xf9, 0x37, 0x3d,
  0x62, 0x12, 0x4a, 0xbf, 0x3a, 0x70, 0x75, 0xbe, 0xf0, 0x26, 0xab, 0x3d,
  0x00, 0x13, 0x22, 0x3d, 0xa3, 0x26, 0x82, 0x3e, 0x15, 0x82, 0x42, 0x3e,
  0x51, 0xaa, 0x0e, 0xbf, 0xbc, 0xda, 0x33, 0xbe, 0xd1, 0xf2, 0x42, 0xbf,
  0xb8, 0x0b, 0x58, 0xbe, 0xd7, 0xa3, 0x93, 0x3e, 0x3c, 0xf1, 0xfe, 0x3d,
  0xce, 0x85, 0x3a, 0xbe, 0xf4, 0xfd, 0x26, 0x3e, 0xf2, 0x34, 0x60, 0xbe,
  0x2a, 0x22, 0xbf, 0xbd, 0xd2, 0x9c, 0xb5, 0x3e, 0xcf, 0x76, 0xdd, 0xbe,
  0xae, 0xdb, 0x6e, 0x3e, 0x86, 0x12, 0x01, 0x3f, 0x9c, 0x21, 0x74, 0x3e,
  0xa1, 0xa7, 0x16, 0xbf, 0x4e, 0xf2, 0xe6, 0xbe, 0xe6, 0xc7, 0x90, 0x3e,
  0xea, 0x57, 0x9e, 0x3c, 0xb0, 0xdd, 0x7b, 0x3d, 0x40, 0xfd, 0x5d, 0xbd,
  0x5d, 0x57, 0x39, 0xbe, 0xcc, 0x6e, 0x84, 0xbe, 0xc8, 0x25, 0x11, 0x3d,
  0x84, 0x67, 0xce, 0x3d, 0x20, 0xdd, 0x9c, 0xbd, 0xb8, 0xaa, 0x82, 0xbf,
  0x7d, 0x45, 0x4c, 0xbe, 0x81, 0xa7, 0x95, 0xbe, 0x7e, 0x51, 0x66, 0x3e,
  0x8c, 0xc9, 0xb9, 0x3d, 0xe3, 0x40, 0x39, 0xbe, 0x1a, 0xbd, 0x77, 0x3e,
  0x07, 0x95, 0x95, 0x3e, 0xdd, 0xf0, 0xd3, 0xbe, 0xc6, 0xf2, 0x8d, 0xbe,
  0x16, 0x08, 0x69, 0x3e, 0xc0, 0x99, 0x0b, 0xbe, 0x0d, 0xfb, 0xc7, 0xbc,
  0xda, 0x7a, 0x47, 0x3e, 0x08, 0xac, 0x0c, 0x3d, 0xe7, 0xe6, 0x81, 0x3e,
  0x7f, 0x01, 0xef, 0x3d, 0xaf, 0xef, 0xc4, 0x3d, 0x8a, 0x77, 0xa4, 0x3e,
  0xd5, 0x5f, 0xc8, 0xbc, 0x8e, 0x57, 0xeb, 0xbd, 0xc3, 0x11, 0x52, 0xbd,
  0x16, 0x31, 0xb3, 0xbd, 0x92, 0x7a, 0xde, 0x3e, 0x21, 0x5e, 0x19, 0x3e,
  0x18, 0x06, 0x3b, 0x3e, 0x7c, 0x2c, 0xae, 0x3d, 0x40, 0xa5, 0xa4, 0x3d,
  0x85, 0xea, 0x91, 0xbe, 0x5a, 0x5d, 0x82, 0xbe, 0xb0, 0xe0, 0xd2, 0xbd,
  0x6c, 0x0a, 0x8f, 0x3d, 0x24, 0x28, 0xb2, 0xbf, 0x20, 0x91, 0xc2, 0x3c,
  0xe0, 0x1b, 0x43, 0x3e, 0x91, 0x41, 0x81, 0xbe, 0x96, 0x13, 0x6f, 0xbe,
  0xd2, 0xb3, 0xc6, 0x3e, 0xb4, 0xa0, 0x2d, 0x3e, 0xe0, 0xac, 0x1e, 0x3d,
  0x8e, 0x76, 0x38, 0xbf, 0x40, 0x90, 0xea, 0xbd, 0x60, 0xc3, 0xdc, 0xbc,
  0xfa, 0x90, 0x4d, 0x3e, 0xf7, 0x31, 0xb6, 0x3d, 0x4b, 0x2d, 0x8b, 0x3e,
  0x76, 0xa7, 0x0a, 0x3e, 0xbc, 0xfc, 0x8a, 0xbe, 0xc7, 0xa4, 0x24, 0xbe,
  0x9b, 0x99, 0x5b, 0xbe, 0xa1, 0x65, 0x83, 0xbe, 0x54, 0x86, 0xa8, 0x3e,
  0x4c, 0x0a, 0xc5, 0x3e, 0x69, 0xca, 0x14, 0xbf, 0xcc, 0xea, 0x93, 0xbe,
  0xab, 0x0a, 0x74, 0x3d, 0x88, 0xf8, 0x35, 0x3e, 0xa8, 0xa0, 0x20, 0x3d,
  0x2e, 0xa4, 0x6f, 0xbe, 0x67, 0x9d, 0x85, 0xbe, 0xf0, 0x6e, 0xd2, 0x3d,
  0x82, 0xc6, 0x54, 0x3e, 0xe4, 0xe3, 0xf7, 0x3d, 0xd4, 0x6d, 0xed, 0x3d,
  0xd9, 0xe5, 0x8c, 0xbf, 0x4c, 0x29, 0x57, 0xbe, 0xa0, 0x44, 0xeb, 0x3d,
  0xc2, 0x04, 0xdc, 0xbd, 0xa8, 0x05, 0x43, 0xbe, 0xa1, 0x1b, 0xef, 0x3b,
  0x4e, 0xda, 0x9e, 0x3e, 0xf6, 0xcf, 0x7a, 0xbe, 0x3e, 0xf4, 0xd6, 0xbe,
  0x2e, 0x97, 0x01, 0x3e, 0xc0, 0x83, 0x1d, 0xbc, 0xc6, 0x70, 0x94, 0xbe,
  0x73, 0x0e, 0xa8, 0x3d, 0x70, 0x11, 0x97, 0xbc, 0xf0, 0x5d, 0x32, 0xbd,
  0xe8, 0xf4, 0xd3, 0xbd, 0x4f, 0x0c, 0x1c, 0xbe, 0xba, 0xce, 0xfe, 0x3d,
  0x1d, 0x66, 0x13, 0xbe, 0x9f, 0x68, 0xc4, 0x3e, 0x43, 0x17, 0x95, 0xbd,
  0x05, 0xec, 0x96, 0xbe, 0xb7, 0xd5, 0xa3, 0xbd, 0xb9, 0xfe, 0x9f, 0x3e,
  0xa9, 0x80, 0xa8, 0xbe, 0xc6, 0x22, 0x1c, 0xbe, 0xfa, 0x4f, 0xe1, 0xbd,
  0x4f, 0x8f, 0x83, 0xbe, 0x7b, 0x74, 0x53, 0xbe, 0xb4, 0x62, 0xa9, 0x3d,
  0x22, 0x68, 0x57, 0x3e, 0x4c, 0x9c, 0x45, 0x3e, 0xb4, 0x6c, 0x54, 0xbf,
  0xd4, 0xb4, 0xa4, 0x3d, 0xae, 0xc3, 0x2e, 0x3e, 0x29, 0x21, 0x87, 0xbe,
  0xce, 0x4e, 0x2b, 0x3e, 0x64, 0x79, 0xdf, 0x3e, 0x9a, 0x0e, 0x18, 0xbf,
  0xc0, 0xe2, 0x65, 0x3d, 0x2e, 0xb1, 0xe0, 0xbe, 0x24, 0x9b, 0x10, 0x3e,
  0xde, 0x71, 0x39, 0x3e, 0x48, 0xfa, 0x21, 0x3e, 0x89, 0x9a, 0x13, 0xbf,
  0xbe, 0x95, 0x38, 0x3e, 0x14, 0x79, 0xf4, 0xbd, 0xe1, 0x1a, 0x98, 0xbe,
  0xac, 0x5c, 0x91, 0x3e, 0xae, 0xd4, 0x9b, 0xbe, 0xae, 0x32, 0x69, 0x3e,
  0x8e, 0x3e, 0x65, 0x3e, 0x90, 0x43, 0xe3, 0x3d, 0x22, 0x5d, 0x43, 0xbf,
  0x37, 0x98, 0x25, 0xbe, 0xe6, 0xfb, 0x79, 0x3d, 0xa3, 0x55, 0x37, 0xbe,
  0xb4, 0x5b, 0xd3, 0xbd, 0x6b, 0x20, 0x8b, 0x3e, 0xa2, 0x68, 0x11, 0x3e,
  0x8a, 0x11, 0x97, 0xbd, 0x3a, 0xf6, 0x60, 0x3e, 0xdc, 0xac, 0xdd, 0xbd,
  0xc8, 0x3f, 0xca, 0x3d, 0x58, 0x5f, 0x31, 0xbf, 0xf8, 0x5f, 0x02, 0xbd,
  0xd6, 0x89, 0x0a, 0x3e, 0x2c, 0x3f, 0x84, 0x3d, 0xf8, 0xf6, 0xb0, 0xbd,
  0xe2, 0xa6, 0xe1, 0x3e, 0x08, 0x13, 0x55, 0xbe, 0xa8, 0xa4, 0xcc, 0xbd,
  0x47, 0x20, 0x5d, 0xbe, 0xf8, 0xdb, 0x7d, 0xbe, 0xa0, 0x1c, 0xbc, 0x3d,
  0xa1, 0x19, 0x0b, 0xbe, 0xc6, 0xd7, 0x2a, 0xbf, 0x20, 0xba, 0x29, 0x3e,
  0xf0, 0xa4, 0x6c, 0x3d, 0x7a, 0x13, 0x9b, 0xbe, 0xce, 0x76, 0xaf, 0x3e,
  0xe6, 0x13, 0x1e, 0xbf, 0x2f, 0xc3, 0xd5, 0x3c, 0x34, 0x97, 0xd0, 0x3e,
  0x5e, 0x94, 0x68, 0x3e, 0xe7, 0x2e, 0x1d, 0xbf, 0x4b, 0x76, 0x7c, 0xbe,
  0x4c, 0xb6, 0xc0, 0xbd, 0x0f, 0x71, 0x59, 0xbe, 0xec, 0xdc, 0x47, 0xbe,
  0x28, 0xeb, 0xc1, 0xbd, 0x84, 0x4e, 0xd9, 0x3d, 0x08, 0x43, 0x08, 0x3d,
  0xc2, 0x09, 0x48, 0x3e, 0x4c, 0x61, 0x20, 0x3e, 0xd0, 0x43, 0x06, 0x3e,
  0x02, 0x6e, 0x17, 0xbe, 0x98, 0xa0, 0x6c, 0xbe, 0xf2, 0xfe, 0x6d, 0xbe,
  0xb0, 0x63, 0xa1, 0xbc, 0x2a, 0x0c, 0x58, 0x3e, 0x2b, 0x10, 0x00, 0xbe,
  0x1f, 0xc6, 0x8d, 0xbe, 0xae, 0xad, 0x9d, 0xbd, 0x0c, 0xc9, 0x31, 0x3e,
  0x55, 0xa4, 0x24, 0xbe, 0x84, 0x79, 0x0a, 0x3e, 0xb8, 0x8b, 0xdd, 0xbd,
  0x68, 0x87, 0xbc, 0xbd, 0x59, 0x25, 0x15, 0xbe, 0xe4, 0x2b, 0xb0, 0x3d,
  0xc0, 0x97, 0x74, 0x3c, 0xd7, 0x27, 0x75, 0x3e, 0x92, 0x35, 0x88, 0x3e,
  0xba, 0x10, 0xf1, 0x3b, 0xd0, 0xaf, 0xf6, 0xb9, 0x9e, 0x9d, 0xf4, 0xbd,
  0x78, 0x68, 0x4c, 0xbe, 0x3d, 0xfd, 0x6e, 0x3e, 0xb2, 0xfe, 0x50, 0xbe,
  0x9c, 0xb9, 0x56, 0xbe, 0x88, 0x96, 0x19, 0xbd, 0x1a, 0xd5, 0x4d, 0x3e,
  0x78, 0x89, 0x91, 0xbe, 0x91, 0x97, 0x05, 0xbe, 0xdf, 0x5f, 0x81, 0x3e,
  0xf0, 0x03, 0x77, 0x3d, 0xa2, 0x19, 0x2c, 0xbe, 0xa5, 0x3a, 0x52, 0x3e,
  0x94, 0x4a, 0x84, 0xbe, 0x50, 0xba, 0x04, 0x3e, 0x04, 0x2c, 0xea, 0x3d,
  0xf0, 0xf2, 0x33, 0x3d, 0x98, 0xf5, 0x9b, 0xbc, 0x7b, 0x9b, 0x82, 0xbe,
  0x76, 0x9d, 0x47, 0x3e, 0xa8, 0xc2, 0x73, 0xbe, 0xb0, 0xcd, 0x04, 0xbd,
  0xe1, 0x97, 0x75, 0xbe, 0x40, 0x06, 0xfc, 0xbb, 0x20, 0x02, 0x9a, 0x3e,
  0x59, 0x02, 0x99, 0xbe, 0x08, 0xc5, 0x15, 0xbd, 0x9e, 0x14, 0x45, 0x3e,
  0x4c, 0x24, 0x32, 0x3e, 0x00, 0x1b, 0x64, 0x3c, 0x8d, 0x32, 0x7a, 0xbe,
  0x47, 0x69, 0x5d, 0x3e, 0x29, 0x6b, 0x3b, 0xbe, 0xd6, 0xfa, 0x1f, 0x3e,
  0x76, 0x31, 0xd6, 0xbd, 0x8d, 0x72, 0x76, 0xbd, 0x53, 0xd0, 0x90, 0xbe,
  0xf0, 0x5d, 0x97, 0x3d, 0x33, 0x24, 0x9a, 0xbe, 0xd0, 0xf3, 0x73, 0x3d,
  0x7d, 0xc8, 0x9b, 0xbe, 0x00, 0xf4, 0x4d, 0xbc, 0x4c, 0x5a, 0xd1, 0x3d,
  0x67, 0xae, 0x98, 0x3e, 0xf2, 0x0a, 0x36, 0xbf, 0x6c, 0x94, 0xfd, 0x3d,
  0x26, 0x5a, 0x80, 0xbd, 0x40, 0x54, 0xd9, 0x3d, 0xc0, 0x35, 0xd4, 0x3d,
  0x65, 0x1d, 0xd5, 0x3e, 0x6a, 0x78, 0x2e, 0xbf, 0x16, 0x3d, 0x2f, 0x3e,
  0x10, 0x7a, 0x30, 0xbf, 0x70, 0x5a, 0x47, 0x3d, 0xb6, 0x32, 0xf2, 0xbd,
  0xc3, 0xab, 0x80, 0xbe, 0x95, 0xf6, 0xe1, 0xbe, 0x1a, 0x0d, 0x15, 0xbe,
  0x68, 0x56, 0xed, 0x3d, 0xd2, 0xf9, 0x19, 0xbe, 0x3a, 0x65, 0xdc, 0x3d,
  0x56, 0xc3, 0x0d, 0xbf, 0x72, 0x5f, 0xab, 0xbd, 0xe0, 0x41, 0xc7, 0x3c,
  0x21, 0x0a, 0xc7, 0x3e, 0xba, 0xb8, 0x1a, 0xbf, 0x45, 0xae, 0xd4, 0xbe,
  0xec, 0xdb, 0x53, 0x3e, 0x25, 0x8f, 0xf7, 0xbe, 0xe9, 0x29, 0x01, 0xbe,
  0x50, 0x8e, 0x99, 0x3c, 0xe0, 0x31, 0x2e, 0x3c, 0xb8, 0x5a, 0x84, 0xbd,
  0xa0, 0x1d, 0xf1, 0xbc, 0xbc, 0x03, 0x44, 0x3e, 0xc7, 0xd2, 0x89, 0x3e,
  0x9a, 0x31, 0x44, 0xbe, 0xa6, 0x9e, 0x39, 0x3e, 0xb8, 0x02, 0x70, 0xbe,
  0x2c, 0xcb, 0x3a, 0x3e, 0x48, 0xd8, 0x3f, 0xbd, 0x68, 0x26, 0x64, 0x3e,
  0xf2, 0x95, 0x02, 0xbf, 0x56, 0x16, 0x1c, 0x3e, 0x4e, 0x5b, 0x0e, 0xbf,
  0x78, 0x0c, 0x00, 0xbe, 0x42, 0x24, 0x51, 0xbe, 0x90, 0x64, 0x94, 0xbd,
  0x9c, 0x03, 0xdc, 0xbe, 0xc8, 0xdb, 0xcd, 0x3d, 0xc1, 0x44, 0x89, 0xbe,
  0x0e, 0xb9, 0x6f, 0x3e, 0xfd, 0x45, 0xdf, 0x3e, 0xfd, 0x4e, 0xb5, 0xbe,
  0x57, 0xb6, 0xa5, 0x3e, 0x86, 0x4a, 0xea, 0x3d, 0x8b, 0xbb, 0x8b, 0x3e,
  0x1c, 0xad, 0xe6, 0xbe, 0xad, 0x8a, 0xb8, 0xbe, 0xfc, 0x05, 0x9a, 0x3e,
  0xd6, 0xdc, 0x53, 0x3e, 0xe8, 0x32, 0x9e, 0xbd, 0x7c, 0xeb, 0x43, 0x3e,
  0xe8, 0xcf, 0x0a, 0x3d, 0x98, 0x14, 0x0c, 0xbd, 0x9a, 0x94, 0x39, 0x3e,
  0x00, 0x90, 0xb6, 0x39, 0x28, 0x67, 0xd5, 0x3d, 0xf1, 0x26, 0x93, 0x3e,
  0x49, 0x11, 0x37, 0xbe, 0xe0, 0x19, 0xff, 0x3c, 0x72, 0x63, 0x5e, 0xbe,
  0x08, 0xcd, 0x59, 0xbe, 0x50, 0x9d, 0x92, 0xbe, 0x38, 0x31, 0xd7, 0xbd,
  0x44, 0x66, 0x2d, 0xbe, 0xb2, 0xc9, 0xcb, 0xbd, 0x5c, 0x23, 0x96, 0x3d,
  0x80, 0x91, 0x0e, 0xbb, 0x7e, 0x6a, 0x94, 0xbd, 0x9a, 0x7b, 0x8f, 0xbe,
  0xa9, 0x51, 0x8d, 0x3e, 0x75, 0x81, 0x90, 0xbe, 0x25, 0x14, 0x7f, 0xbe,
  0x60, 0xc4, 0xca, 0x3c, 0xb3, 0x1e, 0x95, 0x3e, 0x87, 0x02, 0x94, 0xbe,
  0xe0, 0xd0, 0x2b, 0x3c, 0xcb, 0x6a, 0x13, 0xbe, 0xe6, 0x40, 0x52, 0x3e,
  0x66, 0xd5, 0x39, 0xbe, 0xf2, 0xba, 0x0c, 0x3e, 0x5c, 0x3f, 0x94, 0xbe,
  0xc8, 0xc3, 0x38, 0xbe, 0x88, 0x38, 0x34, 0xbd, 0x27, 0xfd, 0x36, 0xbe,
  0x52, 0x53, 0x2b, 0xbe, 0x0e, 0xd9, 0xd8, 0xbd, 0xc8, 0xf2, 0x36, 0xbe,
  0x74, 0xb8, 0x3a, 0x3e, 0xda, 0x95, 0x08, 0xbf, 0xcc, 0x29, 0x8b, 0x3d,
  0x70, 0x8c, 0xd7, 0xbc, 0x66, 0xb0, 0x61, 0x3e, 0xe5, 0x50, 0x82, 0xbe,
  0xd0, 0x6d, 0xdf, 0x3d, 0x50, 0xc1, 0xa8, 0xbe, 0x20, 0x91, 0x0a, 0x3d,
  0xb0, 0x30, 0x00, 0xbf, 0x40, 0x31, 0xf9, 0xbb, 0x71, 0x12, 0x98, 0x3e,
  0x60, 0x3a, 0x68, 0x3c, 0x16, 0x5d, 0xb7, 0xbe, 0xc8, 0xf0, 0x2b, 0xbd,
  0x12, 0x44, 0x99, 0xbe, 0x76, 0x67, 0x54, 0x3e, 0x02, 0x24, 0xdf, 0x3e,
  0x0a, 0x7a, 0x7c, 0xbe, 0x27, 0x1a, 0x09, 0x3e, 0xe3, 0xf8, 0x3f, 0x3e,
  0x6f, 0xc9, 0x3d, 0x3e, 0x07, 0x2f, 0xb8, 0xbe, 0x0f, 0xf6, 0x1a, 0xbf,
  0x23, 0x8a, 0x2e, 0x3e, 0x62, 0x4c, 0x0c, 0xbf, 0x72, 0x21, 0x60, 0xbe,
  0xf6, 0x86, 0x0d, 0x3e, 0x31, 0x6f, 0x8f, 0x3e, 0x44, 0x7b, 0x8f, 0xbe,
  0x70, 0xb4, 0xea, 0xbc, 0x36, 0x3b, 0x54, 0x3e, 0xdc, 0x12, 0xda, 0xbd,
  0xd3, 0x96, 0x26, 0xbf, 0x80, 0x51, 0x1e, 0xbd, 0x37, 0xb9, 0x90, 0xbe,
  0xe4, 0x6e, 0xdd, 0x3d, 0x7e, 0x5d, 0x2c, 0xbe, 0x34, 0xba, 0x86, 0x3e,
  0xb1, 0x68, 0x21, 0xbf, 0xc0, 0xdd, 0x99, 0x3b, 0xe6, 0x5f, 0x33, 0xbf,
  0xa0, 0xce, 0xba, 0xbc, 0xb0, 0x3a, 0x86, 0xbe, 0xc0, 0x4a, 0xe9, 0x3b,
  0x30, 0xe9, 0x1b, 0xbf, 0xf0, 0x07, 0x49, 0xbd, 0x7e, 0x1f, 0x2a, 0x3e,
  0xcf, 0x0b, 0x2f, 0xbe, 0x8d, 0x69, 0xdf, 0x3e, 0x74, 0x42, 0x14, 0xbf,
  0xec, 0xbc, 0x9e, 0x3e, 0xe5, 0xe4, 0x84, 0x3e, 0x70, 0xa6, 0x8d, 0x3e,
  0xaa, 0xe5, 0x35, 0xbf, 0x53, 0xf8, 0x48, 0xbd, 0x17, 0x77, 0xde, 0x3e,
  0x1c, 0xdd, 0x5e, 0xbe, 0x00, 0xbe, 0xa4, 0xbb, 0x62, 0x9c, 0x96, 0xbd,
  0x9a, 0xf8, 0xd9, 0xbd, 0x04, 0xfb, 0x18, 0xbe, 0x5c, 0x7e, 0x40, 0xbe,
  0x52, 0x7c, 0x2e, 0x3e, 0x60, 0x06, 0x24, 0xbc, 0x99, 0x4a, 0x9b, 0xbe,
  0x4a, 0xcf, 0x6a, 0x3e, 0xc2, 0x93, 0xfc, 0xbd, 0xb0, 0x1c, 0x85, 0xbc,
  0x26, 0xd1, 0x3b, 0x3e, 0x9b, 0x0a, 0x75, 0xbf, 0xfc, 0xc4, 0x08, 0xbe,
  0x08, 0x59, 0x3b, 0x3e, 0x00, 0x91, 0x20, 0x3b, 0x77, 0xef, 0x88, 0x3e,
  0x2e, 0x0b, 0xfe, 0xbd, 0xe0, 0x26, 0x02, 0x3c, 0xd0, 0x36, 0x6e, 0xbd,
  0x76, 0x7f, 0x65, 0x3e, 0xec, 0x38, 0x84, 0x3d, 0x64, 0xdf, 0x11, 0x3e,
  0xa2, 0xbe, 0x15, 0xbf, 0x63, 0x9d, 0xee, 0xbd, 0x7d, 0xc4, 0xf9, 0x3e,
  0x24, 0x06, 0x77, 0xbf, 0x0b, 0x66, 0x68, 0xbf, 0x52, 0xd9, 0xe3, 0xbd,
  0x0a, 0xaf, 0x38, 0x3e, 0x27, 0x8b, 0x66, 0xbf, 0x7f, 0x37, 0xe7, 0xbe,
  0xe8, 0x71, 0xb2, 0x3d, 0x69, 0x4a, 0x8c, 0xbe, 0x24, 0xb4, 0xc6, 0x3d,
  0xed, 0xde, 0x9b, 0xbe, 0xca, 0x81, 0x7a, 0x3e, 0x7b, 0x7f, 0x19, 0xbe,
  0x0c, 0x76, 0x97, 0xbd, 0xce, 0x48, 0x06, 0xbf, 0xd6, 0x9a, 0x61, 0xbe,
  0x3a, 0x4b, 0x49, 0x3e, 0xbc, 0x83, 0xa9, 0xbd, 0x90, 0xa8, 0xb9, 0xbd,
  0xe6, 0x63, 0xae, 0x3e, 0xfb, 0x8f, 0x24, 0xbf, 0x09, 0x39, 0x26, 0xbe,
  0x8a, 0xf6, 0x51, 0xbe, 0xd4, 0x70, 0x6b, 0xbd, 0x10, 0x61, 0xe4, 0x3c,
  0x3e, 0x2d, 0x57, 0x3e, 0x90, 0x18, 0x15, 0xbf, 0x92, 0x3a, 0x32, 0xbe,
  0x19, 0x1a, 0x98, 0x3e, 0xa6, 0x32, 0x7b, 0xbe, 0x80, 0x9d, 0x73, 0x3e,
  0x87, 0x01, 0x6e, 0xbe, 0xef, 0x5d, 0xb8, 0xbd, 0x06, 0x79, 0xc0, 0x3e,
  0xd3, 0x6d, 0x30, 0x3e, 0x79, 0x3f, 0xdf, 0xbe, 0xfe, 0xf4, 0xf3, 0xbe,
  0x3b, 0x02, 0x6d, 0x3e, 0x24, 0x22, 0xa4, 0x3e, 0xe8, 0xc3, 0x7a, 0xbe,
  0xc4, 0x42, 0x6c, 0xbe, 0x14, 0x14, 0x07, 0xbe, 0xd8, 0xe2, 0x40, 0x3e,
  0x54, 0x2c, 0xae, 0x3d, 0x87, 0x13, 0x92, 0xbe, 0x80, 0xa9, 0x88, 0xbe,
  0xc3, 0x8b, 0xce, 0x3f, 0x60, 0x9c, 0xbb, 0xbd, 0x2c, 0xbf, 0xa9, 0xbd,
  0xe4, 0x44, 0x9d, 0x3d, 0x52, 0xfe, 0x36, 0xbe, 0x40, 0xbf, 0xde, 0x3d,
  0x2d, 0x80, 0x64, 0xbe, 0xfe, 0xf7, 0x4a, 0xbe, 0x82, 0x38, 0x33, 0x3f,
  0x0a, 0x27, 0x7f, 0x3e, 0xaa, 0xdf, 0xbc, 0xbd, 0x00, 0x7b, 0x98, 0x3b,
  0xdc, 0xc1, 0xb5, 0x3e, 0x04, 0xa6, 0x05, 0x3e, 0xcb, 0x20, 0x02, 0xbe,
  0xc0, 0x37, 0xb7, 0xbc, 0x78, 0x83, 0x7d, 0x3e, 0x18, 0xd4, 0x71, 0x3e,
  0x01, 0x42, 0xfa, 0xbe, 0xf5, 0xe7, 0x44, 0xbd, 0x1c, 0x6f, 0xc0, 0xbd,
  0xce, 0x3c, 0x8c, 0x3e, 0x8c, 0xa4, 0xc9, 0x3e, 0xea, 0xe4, 0x3c, 0x3e,
  0x68, 0xee, 0xd4, 0xbe, 0x60, 0x6c, 0x5c, 0x3d, 0x70, 0x54, 0xeb, 0xbd,
  0x5a, 0x47, 0xe4, 0xbd, 0x10, 0x3e, 0x00, 0x3d, 0x46, 0x4d, 0xb1, 0xbd,
  0xc3, 0x3f, 0x40, 0xbe, 0x57, 0xe0, 0x81, 0x3e, 0xe0, 0x32, 0x28, 0xbf,
  0xb8, 0x5b, 0x07, 0x3d, 0x2e, 0x5d, 0x97, 0xbe, 0x42, 0x07, 0x6b, 0x3e,
  0x3a, 0xd3, 0x74, 0x3e, 0x7d, 0xb9, 0x2a, 0x3e, 0x95, 0x14, 0xe8, 0xbe,
  0x26, 0xfc, 0x99, 0xbe, 0x98, 0xcd, 0x18, 0xbe, 0xae, 0xd5, 0x61, 0x3e,
  0xd2, 0x2e, 0xe0, 0xbd, 0xf0, 0x54, 0xf7, 0xbd, 0x39, 0xae, 0x49, 0xbd,
  0xf8, 0xe6, 0x52, 0xbd, 0xb4, 0x02, 0xaf, 0xbd, 0x18, 0x02, 0xde, 0xbd,
  0xae, 0xcd, 0x50, 0xbe, 0x31, 0x82, 0x9a, 0xbe, 0xd0, 0xa7, 0x74, 0xbe,
  0x96, 0xc4, 0x83, 0x3e, 0x3c, 0x0e, 0xa7, 0x3e, 0x99, 0xfa, 0xff, 0xbe,
  0x00, 0xc7, 0xd7, 0xbe, 0xe7, 0x75, 0xac, 0x3e, 0x13, 0x5a, 0x6b, 0xbe,
  0xfb, 0x23, 0x37, 0xbe, 0xf1, 0x83, 0x7b, 0xbe, 0x7e, 0x3c, 0x1c, 0x3e,
  0x20, 0x97, 0x1a, 0xbc, 0x0a, 0x50, 0x00, 0x3e, 0x6e, 0x58, 0x01, 0x3e,
  0x7e, 0xef, 0x7b, 0x3e, 0x3b, 0x75, 0x84, 0xbe, 0x37, 0xac, 0x89, 0x3e,
  0xa7, 0xef, 0x8e, 0x3e, 0xd0, 0x35, 0xc4, 0x3d, 0x34, 0x54, 0x6b, 0xbd,
  0x77, 0xb6, 0xc0, 0x3d, 0xa4, 0x0e, 0xd8, 0xbe, 0xf8, 0xe7, 0x1b, 0x3e,
  0xac, 0x7e, 0x34, 0xbf, 0xb5, 0x9d, 0x9b, 0xbe, 0x8d, 0x42, 0x02, 0xbe,
  0xe8, 0x85, 0xb4, 0x3d, 0x73, 0xbe, 0x2a, 0xbf, 0x30, 0x63, 0xc3, 0x3c,
  0x58, 0x76, 0x45, 0xbd, 0x36, 0x4c, 0x73, 0x3e, 0x86, 0x32, 0x8a, 0xbd,
  0x58, 0x4a, 0x82, 0xbe, 0x1a, 0xd5, 0x41, 0x3e, 0x5e, 0x52, 0xcc, 0x3e,
  0x84, 0x06, 0xbf, 0x3e, 0xa5, 0xcb, 0x76, 0xbe, 0x04, 0x1f, 0x82, 0xbe,
  0x47, 0x68, 0x06, 0x3e, 0x49, 0x54, 0x48, 0x3e, 0x4a, 0xaa, 0x9a, 0xbe,
  0xa7, 0xe9, 0x9a, 0xbe, 0x8a, 0x83, 0xac, 0xbd, 0x7e, 0x28, 0x5d, 0xbe,
  0x1b, 0xa1, 0x30, 0xbe, 0xc0, 0xc4, 0x52, 0x3d, 0x98, 0x81, 0xa1, 0x3d,
  0xdf, 0x29, 0xc5, 0x3f, 0xb3, 0x6e, 0x86, 0x3e, 0xd9, 0x19, 0x04, 0xbe,
  0x40, 0xcc, 0xe7, 0x3c, 0xd4, 0xb5, 0x43, 0xbe, 0x8a, 0x39, 0x1d, 0xbe,
  0x76, 0xed, 0xc3, 0x3e, 0x8e, 0x18, 0xf0, 0xbd, 0x3a, 0x1f, 0x3f, 0x3f,
  0xd8, 0x19, 0x0d, 0x3e, 0xfc, 0x38, 0xf9, 0xbd, 0xde, 0x14, 0x4f, 0x3e,
  0x32, 0x29, 0x16, 0x3e, 0x51, 0x2a, 0x8a, 0xbe, 0x60, 0xe1, 0x63, 0x3c,
  0xec, 0x17, 0xe3, 0x3d, 0xad, 0x1b, 0x4f, 0x3d, 0x3d, 0xe7, 0x87, 0x3e,
  0xb6, 0xff, 0xa2, 0xbd, 0xb8, 0xff, 0xb8, 0xbe, 0x96, 0x39, 0x5e, 0x3e,
  0x10, 0x94, 0x25, 0x3f, 0xbe, 0x08, 0x11, 0x3e, 0xcf, 0x78, 0x85, 0x3e,
  0x3e, 0x25, 0x44, 0xbe, 0xb8, 0x50, 0x61, 0xbe, 0x20, 0x51, 0xb7, 0xbd,
  0x12, 0x6b, 0xbe, 0xbd, 0x6b, 0xc6, 0x92, 0x3e, 0x97, 0x23, 0x84, 0xbe,
  0xa2, 0x60, 0x36, 0x3e, 0xaf, 0x59, 0x2e, 0xbe, 0xe2, 0xe4, 0x37, 0x3e,
  0x00, 0xbe, 0xc2, 0xba, 0x42, 0x60, 0x6a, 0x3e, 0x29, 0xaf, 0x85, 0x3e,
  0xf2, 0xa7, 0x87, 0xbd, 0x53, 0x11, 0x87, 0xbe, 0xe1, 0x1e, 0x83, 0x3e,
  0xcc, 0x25, 0xbf, 0x3d, 0x32, 0x45, 0x7a, 0x3e, 0x28, 0x7d, 0x0f, 0xbd,
  0xd3, 0x11, 0x6f, 0xbe, 0xf2, 0x83, 0x0a, 0x3e, 0x39, 0x4e, 0x2a, 0xbe,
  0xdf, 0x78, 0x33, 0xbe, 0xb8, 0xbe, 0x6f, 0xbd, 0xc3, 0x09, 0x9b, 0x3e,
  0xbb, 0xa7, 0x25, 0xbe, 0x5e, 0xa3, 0x23, 0xbe, 0xea, 0x24, 0x90, 0xbe,
  0x50, 0x9c, 0x1a, 0xbe, 0x72, 0x82, 0x5a, 0xbe, 0xd7, 0x82, 0x80, 0x3e,
  0x64, 0x2e, 0xf2, 0x3d, 0x2c, 0x78, 0xac, 0x3d, 0xe0, 0xf3, 0x2a, 0x3e,
  0xaf, 0x5c, 0x50, 0xbe, 0xf4, 0x2d, 0x43, 0x3e, 0x14, 0xa1, 0x86, 0xbe,
  0xa5, 0xa3, 0x8a, 0xbe, 0x88, 0x88, 0x8f, 0x3d, 0x7e, 0xde, 0x69, 0x3e,
  0x56, 0x3f, 0x36, 0x3e, 0x00, 0x6e, 0xa6, 0xbf, 0x41, 0x64, 0x1f, 0xbe,
  0xd8, 0x3c, 0x0a, 0x3d, 0x1a, 0x18, 0x3b, 0x3e, 0x94, 0x1e, 0x1d, 0x3e,
  0x34, 0x0d, 0x96, 0x3e, 0x1f, 0x72, 0xd9, 0x3d, 0xd0, 0xde, 0x46, 0x3d,
  0x7f, 0x04, 0xfc, 0xbe, 0x5a, 0xa5, 0x64, 0xbe, 0x81, 0x3e, 0x97, 0xbe,
  0x8f, 0x20, 0x95, 0x3e, 0x1c, 0x40, 0x77, 0xbe, 0x1c, 0x53, 0x94, 0xbd,
  0x26, 0x1a, 0x28, 0xbe, 0xc8, 0xe5, 0x54, 0xbe, 0x1f, 0x7e, 0xae, 0x3e,
  0x58, 0x12, 0x6d, 0xbd, 0x66, 0xfd, 0x04, 0x3e, 0xf2, 0x48, 0x9b, 0x3e,
  0x81, 0x73, 0x27, 0x3e, 0x4e, 0xad, 0xf9, 0xbe, 0x04, 0xb7, 0xd1, 0x3d,
  0x6b, 0xaf, 0x97, 0x3e, 0xc9, 0xdb, 0x62, 0x3e, 0xe1, 0xc4, 0x92, 0xbe,
  0x32, 0xd5, 0x15, 0x3e, 0xf5, 0xdc, 0x85, 0xbe, 0xfe, 0x5f, 0x83, 0xbe,
  0x5c, 0xed, 0xbb, 0x3d, 0x04, 0x84, 0xf7, 0x3d, 0xd6, 0xe8, 0x5d, 0x3e,
  0x45, 0xaa, 0x8c, 0xbf, 0x64, 0x41, 0xb3, 0x3d, 0xf1, 0xec, 0x80, 0xbe,
  0x60, 0xae, 0xdb, 0xbd, 0xd0, 0x6d, 0x47, 0xbd, 0x8d, 0x15, 0x85, 0x3e,
  0x1b, 0xc7, 0x89, 0x3e, 0x78, 0xb4, 0x8c, 0x3d, 0xd1, 0x02, 0x25, 0xbf,
  0xee, 0x09, 0x68, 0xbe, 0xa7, 0xb6, 0x02, 0xbe, 0x1a, 0x70, 0x72, 0xbe,
  0x8c, 0x69, 0x9d, 0xbe, 0x7e, 0xf8, 0x57, 0x3e, 0xb4, 0x9e, 0xf4, 0x3d,
  0xd8, 0xe5, 0xff, 0xbd, 0x5c, 0xfa, 0x68, 0x3e, 0xec, 0xdf, 0x37, 0xbe,
  0xf8, 0xfd, 0x58, 0xbe, 0xee, 0x9f, 0xa0, 0x3e, 0x58, 0xbf, 0x59, 0xbd,
  0x14, 0x5f, 0xbc, 0xbd, 0x39, 0xa0, 0x40, 0xbd, 0x8c, 0x51, 0x9f, 0x3e,
  0xfe, 0xea, 0x9d, 0xbe, 0x69, 0xf5, 0x95, 0xbe, 0x9c, 0x34, 0x2f, 0x3e,
  0x50, 0xaf, 0xe2, 0x3c, 0x34, 0x60, 0x94, 0xbd, 0x54, 0x38, 0x91, 0xbd,
  0x9b, 0x34, 0x8e, 0x3e, 0x74, 0x0d, 0x90, 0xbe, 0x48, 0x69, 0x2a, 0xbf,
  0x02, 0x37, 0x26, 0xbe, 0x70, 0x38, 0xf1, 0x3d, 0xc2, 0xab, 0x4e, 0x3e,
  0x64, 0x19, 0xcd, 0xbd, 0xc3, 0x26, 0xf8, 0x3d, 0x08, 0x62, 0x52, 0xbe,
  0xb0, 0xb9, 0x4b, 0xbd, 0xc2, 0x11, 0x64, 0xbf, 0x18, 0xd7, 0x02, 0x3d,
  0x4f, 0x89, 0x9b, 0x3e, 0x0c, 0x92, 0x87, 0xbe, 0x9d, 0x5b, 0xfc, 0xbe,
  0xf6, 0xb8, 0xaf, 0xbd, 0xf1, 0xc5, 0x19, 0xbe, 0xfe, 0xc2, 0x7c, 0x3e,
  0x3b, 0x4e, 0xca, 0x3e, 0x7b, 0x30, 0x9f, 0xbe, 0xbd, 0x51, 0xb2, 0x3e,
  0xfb, 0x5c, 0x92, 0x3e, 0xd4, 0x35, 0x84, 0x3e, 0x38, 0x27, 0x31, 0xbf,
  0x1d, 0x22, 0x0c, 0xbf, 0x45, 0x8b, 0x53, 0x3e, 0x51, 0x43, 0x7e, 0x3e,
  0x71, 0xa0, 0x89, 0x3e, 0xf0, 0xec, 0x94, 0xbc, 0x20, 0xe7, 0xaf, 0x3c,
  0x66, 0xa9, 0x5b, 0x3e, 0xfc, 0xb2, 0x0c, 0x3e, 0x7a, 0x7d, 0x3c, 0x3e,
  0x48, 0x8e, 0x1c, 0x3e, 0x74, 0x4c, 0xa8, 0x3d, 0x20, 0x24, 0xfe, 0xbc,
  0xd8, 0x51, 0x2c, 0xbd, 0xa6, 0x19, 0x69, 0x3e, 0xb2, 0xb2, 0x92, 0xbd,
  0xa3, 0x3b, 0x42, 0xbe, 0x50, 0xcf, 0x98, 0x3d, 0x10, 0x88, 0xc4, 0x3d,
  0xd3, 0x16, 0x32, 0xbe, 0x40, 0xef, 0x33, 0x3c, 0x81, 0x5c, 0x8a, 0xbe,
  0x05, 0x37, 0x31, 0xbe, 0x77, 0xee, 0x16, 0xbe, 0x11, 0x5b, 0x83, 0xbe,
  0x86, 0x70, 0xbc, 0xbd, 0xc0, 0x9e, 0xc9, 0xbc, 0x85, 0x56, 0x96, 0xbe,
  0xba, 0x6a, 0x40, 0x3e, 0xf5, 0xff, 0xde, 0xbd, 0x8c, 0x91, 0x91, 0x3e,
  0x87, 0x68, 0x02, 0x3e, 0x73, 0x16, 0x91, 0x3e, 0x8c, 0x7d, 0x34, 0xbe,
  0xa6, 0x36, 0x6f, 0xbe, 0xca, 0xac, 0x22, 0xbe, 0xca, 0xce, 0x0c, 0xbe,
  0x33, 0x1b, 0x89, 0xbe, 0x38, 0x7e, 0x45, 0xbe, 0x2e, 0xb8, 0x6d, 0xbe,
  0x26, 0xa4, 0x5e, 0xbe, 0x78, 0xab, 0x39, 0xbe, 0x5e, 0xc9, 0x15, 0xbe,
  0x12, 0xba, 0x4c, 0xbe, 0xa2, 0x37, 0x63, 0x3e, 0xa0, 0x54, 0x88, 0x3c,
  0xf6, 0xe3, 0x11, 0x3e, 0x40, 0x28, 0x31, 0xbc, 0x33, 0x04, 0x93, 0x3d,
  0x38, 0xa2, 0x32, 0x3d, 0x8e, 0xeb, 0x6c, 0x3e, 0xe0, 0xb4, 0x56, 0x3d,
  0x28, 0xfa, 0x7e, 0xbe, 0x52, 0xa7, 0x7a, 0x3e, 0xf0, 0x4e, 0xbe, 0x3d,
  0x80, 0xc0, 0x49, 0xbd, 0x4e, 0xbd, 0x6d, 0xbe, 0x6a, 0xe7, 0x6a, 0xbe,
  0xe8, 0x1e, 0x3c, 0x3e, 0x34, 0x8f, 0x9b, 0xbd, 0x90, 0xfe, 0xf7, 0x3d,
  0xb7, 0xae, 0xde, 0x3d, 0x28, 0xe1, 0xb0, 0xbd, 0x8b, 0xcd, 0x60, 0xbe,
  0x88, 0x4e, 0x00, 0x3e, 0x7c, 0x20, 0xe2, 0x3d, 0x1b, 0xfb, 0x90, 0xbe,
  0xdd, 0x3d, 0x42, 0x3e, 0xa0, 0xab, 0xd1, 0x3d, 0xf8, 0xba, 0x81, 0xbe,
  0x8f, 0xdd, 0x8e, 0x3e, 0x58, 0x24, 0xb3, 0xbd, 0x60, 0x08, 0xef, 0xbc,
  0x7b, 0xf9, 0x8e, 0x3e, 0x71, 0x4b, 0x86, 0x3e, 0xc8, 0x61, 0x64, 0xbf,
  0xb9, 0xe2, 0x92, 0xbe, 0xe0, 0x4e, 0xf9, 0xbd, 0x87, 0xbe, 0x94, 0x3e,
  0x88, 0x1f, 0x8a, 0x3d, 0xfd, 0x19, 0x48, 0x3e, 0xa6, 0x76, 0x37, 0xbd,
  0xc2, 0x8b, 0x31, 0x3e, 0xdb, 0xbc, 0x38, 0xbf, 0xe7, 0x3b, 0x98, 0x3e,
  0x93, 0x4a, 0x8d, 0x3e, 0xcf, 0xef, 0x26, 0xbe, 0xb3, 0xdd, 0x78, 0xbe,
  0x06, 0x0f, 0x42, 0xbe, 0x16, 0x79, 0x93, 0xbe, 0x28, 0xaf, 0x3f, 0xbd,
  0xed, 0x30, 0xed, 0xbc, 0x46, 0x78, 0x77, 0x3d, 0x45, 0x92, 0x83, 0xbd,
  0x84, 0xa5, 0xd3, 0x3e, 0xa1, 0x5b, 0x6d, 0x3d, 0x57, 0x54, 0x1d, 0xbd,
  0x15, 0xde, 0x03, 0xbe, 0x73, 0x66, 0x3b, 0x3e, 0x15, 0x96, 0x07, 0x3e,
  0x12, 0x8a, 0x76, 0x3e, 0x3b, 0x07, 0x25, 0xbe, 0x08, 0x10, 0x2c, 0x3d,
  0x95, 0xdc, 0x4b, 0xbe, 0x70, 0x78, 0x0e, 0xbd, 0x88, 0x87, 0x64, 0xbd,
  0x7a, 0x0b, 0x5f, 0x3e, 0xc7, 0x2b, 0xb7, 0xbf, 0x42, 0x0b, 0xcc, 0xbd,
  0xa8, 0xb2, 0x99, 0xbd, 0xaa, 0x8b, 0x1c, 0x3e, 0x41, 0xfc, 0x4d, 0xbe,
  0xdb, 0x2e, 0x89, 0x3e, 0xbf, 0x2f, 0x7a, 0x3e, 0xb4, 0x34, 0xc0, 0x3d,
  0xd3, 0xf7, 0x99, 0xbe, 0x10, 0x32, 0x82, 0xbc, 0xc4, 0x52, 0x6e, 0xbe,
  0xd0, 0x29, 0xa1, 0x3c, 0xda, 0x5f, 0x07, 0xbe, 0x01, 0x75, 0x99, 0xbe,
  0x76, 0xdc, 0x8b, 0xbd, 0x10, 0x71, 0xdb, 0x3d, 0x4e, 0x1c, 0x73, 0xbc,
  0xdb, 0xa3, 0x20, 0xbe, 0x6d, 0x18, 0x37, 0x3d, 0x34, 0x8e, 0x9c, 0x3d,
  0x8a, 0x55, 0x2b, 0x3e, 0x3b, 0x6e, 0x7a, 0xbe, 0xdc, 0x51, 0x12, 0x3e,
  0xe8, 0xec, 0xc2, 0x3d, 0x6e, 0xba, 0x6a, 0x3e, 0x4c, 0xf0, 0x29, 0xbe,
  0xe0, 0x26, 0xf9, 0xbc, 0x7e, 0xd8, 0x51, 0x3e, 0xf8, 0x42, 0x76, 0x3d,
  0x6c, 0x1e, 0xad, 0x3d, 0x9d, 0xcc, 0x20, 0xbe, 0x76, 0x88, 0x5d, 0x3e,
  0xba, 0xf6, 0x65, 0x3e, 0x19, 0x10, 0x80, 0x3e, 0xaf, 0x02, 0x89, 0x3e,
  0x72, 0xa3, 0xc6, 0xbd, 0x9c, 0xdf, 0xd5, 0xbd, 0x9d, 0x3b, 0x83, 0xbe,
  0x81, 0xc5, 0x80, 0x3e, 0x75, 0xb7, 0x81, 0xbe, 0x2d, 0xb5, 0x2e, 0xbe,
  0xd2, 0x39, 0x7d, 0x3e, 0x00, 0x45, 0xc3, 0x3d, 0x40, 0x80, 0x92, 0x3d,
  0xf6, 0x13, 0x76, 0x3e, 0x58, 0xeb, 0x3f, 0x3d, 0x3c, 0x09, 0x3f, 0x3e,
  0x88, 0xbc, 0x8b, 0xbe, 0xad, 0x1c, 0x90, 0xbe, 0xe7, 0x0b, 0x72, 0xbe,
  0x77, 0x6b, 0x9a, 0xbe, 0x50, 0x83, 0xe2, 0xbd, 0xdc, 0xae, 0xea, 0x3d,
  0xd4, 0x49, 0x8a, 0x3d, 0xcc, 0x01, 0x27, 0xbe, 0x29, 0xf0, 0x1d, 0xbe,
  0x62, 0xff, 0xff, 0xff, 0x04, 0x00, 0x00, 0x00, 0x80, 0x00, 0x00, 0x00,
  0x8e, 0x7d, 0x03, 0x3e, 0xbc, 0x4d, 0xeb, 0xbd, 0x91, 0x47, 0x11, 0x3f,
  0x57, 0xc2, 0x6b, 0x3e, 0x12, 0xd1, 0x31, 0x3f, 0x2e, 0x33, 0x08, 0xbf,
  0x45, 0xc4, 0x42, 0xbf, 0x90, 0x03, 0x22, 0xbf, 0xe6, 0xf1, 0x44, 0x3f,
  0xe4, 0xc9, 0x08, 0x3f, 0x7b, 0xf1, 0x01, 0xbe, 0x7b, 0xf0, 0x10, 0xbe,
  0xb0, 0xbc, 0x5b, 0x3f, 0x8d, 0x14, 0x68, 0x3f, 0xce, 0xcc, 0x8b, 0xbe,
  0x48, 0xb4, 0x15, 0x3f, 0x06, 0xf6, 0x6e, 0x3f, 0x68, 0xa2, 0x93, 0xbf,
  0xaf, 0xd7, 0x4f, 0x3f, 0x42, 0x1a, 0x51, 0x3f, 0xee, 0x12, 0x25, 0x3f,
  0x90, 0xef, 0x5d, 0x3f, 0xe3, 0x55, 0x93, 0x3f, 0x1c, 0x9b, 0x12, 0x3e,
  0x2e, 0x8e, 0x12, 0xbf, 0x0d, 0x41, 0xe8, 0xbe, 0x36, 0x89, 0x13, 0x3f,
  0x61, 0x19, 0x10, 0xbe, 0x43, 0xe1, 0x92, 0x3d, 0xd7, 0xba, 0x1a, 0xbf,
  0x1f, 0xba, 0x3e, 0xbe, 0xd0, 0xfb, 0xed, 0x3c, 0xee, 0xff, 0xff, 0xff,
  0x04, 0x00, 0x00, 0x00, 0x04, 0x00, 0x00, 0x00, 0x6e, 0xf0, 0xc0, 0xbe,
  0x00, 0x00, 0x06, 0x00, 0x08, 0x00, 0x04, 0x00, 0x06, 0x00, 0x00, 0x00,
  0x04, 0x00, 0x00, 0x00, 0x80, 0x00, 0x00, 0x00, 0x8e, 0x8e, 0x1d, 0xbd,
  0x16, 0x4a, 0xbd, 0xbb, 0x1a, 0xfe, 0x6f, 0x3d, 0x84, 0x62, 0x2b, 0xbc,
  0x3e, 0x8a, 0xfd, 0x3d, 0x54, 0xef, 0x0f, 0x3e, 0xd4, 0xac, 0xdf, 0x3d,
  0xe7, 0xc6, 0x17, 0x3e, 0x7b, 0xe3, 0xdd, 0x3d, 0x86, 0x67, 0xb3, 0x3d,
  0x0e, 0x4e, 0xbd, 0xbb, 0x31, 0x23, 0x22, 0xbd, 0x0b, 0xfe, 0xa0, 0x3d,
  0xf1, 0xca, 0x46, 0x3d, 0x00, 0x00, 0x00, 0x00, 0xc6, 0x58, 0xb7, 0x3d,
  0x1b, 0x60, 0x87, 0x3d, 0x35, 0xb5, 0xd4, 0x3e, 0x43, 0xd6, 0x9a, 0x3d,
  0x51, 0xd1, 0x36, 0xbe, 0x76, 0x42, 0x1e, 0x3d, 0xfd, 0x0b, 0xb6, 0x3d,
  0xca, 0x04, 0x9c, 0xbe, 0x00, 0x00, 0x00, 0x00, 0x1e, 0xbf, 0x81, 0x3d,
  0xb8, 0xc2, 0xf2, 0x3d, 0x72, 0x79, 0x00, 0x3e, 0xa0, 0x51, 0xbd, 0xbb,
  0x11, 0x7d, 0x8a, 0xbc, 0xa7, 0x58, 0xf6, 0x3d, 0x3f, 0x71, 0xe6, 0x3d,
  0x00, 0x00, 0x00, 0x00, 0xdc, 0xfa, 0xff, 0xff, 0xe0, 0xfa, 0xff, 0xff,
  0x0f, 0x00, 0x00, 0x00, 0x4d, 0x4c, 0x49, 0x52, 0x20, 0x43, 0x6f, 0x6e,
  0x76, 0x65, 0x72, 0x74, 0x65, 0x64, 0x2e, 0x00, 0x01, 0x00, 0x00, 0x00,
  0x14, 0x00, 0x00, 0x00, 0x00, 0x00, 0x0e, 0x00, 0x18, 0x00, 0x14, 0x00,
  0x10, 0x00, 0x0c, 0x00, 0x08, 0x00, 0x04, 0x00, 0x0e, 0x00, 0x00, 0x00,
  0x14, 0x00, 0x00, 0x00, 0x1c, 0x00, 0x00, 0x00, 0xe8, 0x00, 0x00, 0x00,
  0xec, 0x00, 0x00, 0x00, 0xf0, 0x00, 0x00, 0x00, 0x04, 0x00, 0x00, 0x00,
  0x6d, 0x61, 0x69, 0x6e, 0x00, 0x00, 0x00, 0x00, 0x03, 0x00, 0x00, 0x00,
  0x90, 0x00, 0x00, 0x00, 0x48, 0x00, 0x00, 0x00, 0x04, 0x00, 0x00, 0x00,
  0xce, 0xff, 0xff, 0xff, 0x10, 0x00, 0x00, 0x00, 0x00, 0x00, 0x00, 0x08,
  0x0c, 0x00, 0x00, 0x00, 0x10, 0x00, 0x00, 0x00, 0x58, 0xfb, 0xff, 0xff,
  0x01, 0x00, 0x00, 0x00, 0x09, 0x00, 0x00, 0x00, 0x03, 0x00, 0x00, 0x00,
  0x08, 0x00, 0x00, 0x00, 0x03, 0x00, 0x00, 0x00, 0x02, 0x00, 0x00, 0x00,
  0x00, 0x00, 0x0e, 0x00, 0x14, 0x00, 0x00, 0x00, 0x10, 0x00, 0x0c, 0x00,
  0x0b, 0x00, 0x04, 0x00, 0x0e, 0x00, 0x00, 0x00, 0x10, 0x00, 0x00, 0x00,
  0x00, 0x00, 0x00, 0x08, 0x10, 0x00, 0x00, 0x00, 0x14, 0x00, 0x00, 0x00,
  0xba, 0xff, 0xff, 0xff, 0x00, 0x00, 0x00, 0x01, 0x01, 0x00, 0x00, 0x00,
  0x08, 0x00, 0x00, 0x00, 0x03, 0x00, 0x00, 0x00, 0x07, 0x00, 0x00, 0x00,
  0x04, 0x00, 0x00, 0x00, 0x01, 0x00, 0x00, 0x00, 0x00, 0x00, 0x0e, 0x00,
  0x16, 0x00, 0x00, 0x00, 0x10, 0x00, 0x0c, 0x00, 0x0b, 0x00, 0x04, 0x00,
  0x0e, 0x00, 0x00, 0x00, 0x18, 0x00, 0x00, 0x00, 0x00, 0x00, 0x00, 0x08,
  0x18, 0x00, 0x00, 0x00, 0x1c, 0x00, 0x00, 0x00, 0x00, 0x00, 0x06, 0x00,
  0x08, 0x00, 0x07, 0x00, 0x06, 0x00, 0x00, 0x00, 0x00, 0x00, 0x00, 0x01,
  0x01, 0x00, 0x00, 0x00, 0x07, 0x00, 0x00, 0x00, 0x03, 0x00, 0x00, 0x00,
  0x00, 0x00, 0x00, 0x00, 0x05, 0x00, 0x00, 0x00, 0x06, 0x00, 0x00, 0x00,
  0x01, 0x00, 0x00, 0x00, 0x09, 0x00, 0x00, 0x00, 0x01, 0x00, 0x00, 0x00,
  0x00, 0x00, 0x00, 0x00, 0x0a, 0x00, 0x00, 0x00, 0xc0, 0x03, 0x00, 0x00,
  0x40, 0x03, 0x00, 0x00, 0xe0, 0x02, 0x00, 0x00, 0x90, 0x02, 0x00, 0x00,
  0x40, 0x02, 0x00, 0x00, 0xf4, 0x01, 0x00, 0x00, 0x90, 0x01, 0x00, 0x00,
  0xfc, 0x00, 0x00, 0x00, 0x60, 0x00, 0x00, 0x00, 0x04, 0x00, 0x00, 0x00,
  0x7e, 0xfc, 0xff, 0xff, 0x00, 0x00, 0x00, 0x01, 0x14, 0x00, 0x00, 0x00,
  0x1c, 0x00, 0x00, 0x00, 0x1c, 0x00, 0x00, 0x00, 0x0a, 0x00, 0x00, 0x00,
  0x34, 0x00, 0x00, 0x00, 0x02, 0x00, 0x00, 0x00, 0xff, 0xff, 0xff, 0xff,
  0x01, 0x00, 0x00, 0x00, 0x68, 0xfc, 0xff, 0xff, 0x1b, 0x00, 0x00, 0x00,
  0x53, 0x74, 0x61, 0x74, 0x65, 0x66, 0x75, 0x6c, 0x50, 0x61, 0x72, 0x74,
  0x69, 0x74, 0x69, 0x6f, 0x6e, 0x65, 0x64, 0x43, 0x61, 0x6c, 0x6c, 0x5f,
  0x31, 0x3a, 0x30, 0x00, 0x02, 0x00, 0x00, 0x00, 0x01, 0x00, 0x00, 0x00,
  0x01, 0x00, 0x00, 0x00, 0xd6, 0xfc, 0xff, 0xff, 0x00, 0x00, 0x00, 0x01,
  0x14, 0x00, 0x00, 0x00, 0x1c, 0x00, 0x00, 0x00, 0x1c, 0x00, 0x00, 0x00,
  0x09, 0x00, 0x00, 0x00, 0x74, 0x00, 0x00, 0x00, 0x02, 0x00, 0x00, 0x00,
  0xff, 0xff, 0xff, 0xff, 0x20, 0x00, 0x00, 0x00, 0xc0, 0xfc, 0xff, 0xff,
  0x58, 0x00, 0x00, 0x00, 0x73, 0x65, 0x71, 0x75, 0x65, 0x6e, 0x74, 0x69,
  0x61, 0x6c, 0x5f, 0x31, 0x2f, 0x64, 0x65, 0x6e, 0x73, 0x65, 0x5f, 0x31,
  0x5f, 0x32, 0x2f, 0x4d, 0x61, 0x74, 0x4d, 0x75, 0x6c, 0x3b, 0x73, 0x65,
  0x71, 0x75, 0x65, 0x6e, 0x74, 0x69, 0x61, 0x6c, 0x5f, 0x31, 0x2f, 0x64,
  0x65, 0x6e, 0x73, 0x65, 0x5f, 0x31, 0x5f, 0x32, 0x2f, 0x52, 0x65, 0x6c,
  0x75, 0x3b, 0x73, 0x65, 0x71, 0x75, 0x65, 0x6e, 0x74, 0x69, 0x61, 0x6c,
  0x5f, 0x31, 0x2f, 0x64, 0x65, 0x6e, 0x73, 0x65, 0x5f, 0x31, 0x5f, 0x32,
  0x2f, 0x42, 0x69, 0x61, 0x73, 0x41, 0x64, 0x64, 0x00, 0x00, 0x00, 0x00,
  0x02, 0x00, 0x00, 0x00, 0x01, 0x00, 0x00, 0x00, 0x20, 0x00, 0x00, 0x00,
  0x6e, 0xfd, 0xff, 0xff, 0x00, 0x00, 0x00, 0x01, 0x14, 0x00, 0x00, 0x00,
  0x1c, 0x00, 0x00, 0x00, 0x1c, 0x00, 0x00, 0x00, 0x08, 0x00, 0x00, 0x00,
  0x6c, 0x00, 0x00, 0x00, 0x02, 0x00, 0x00, 0x00, 0xff, 0xff, 0xff, 0xff,
  0x20, 0x00, 0x00, 0x00, 0x58, 0xfd, 0xff, 0xff, 0x52, 0x00, 0x00, 0x00,
  0x73, 0x65, 0x71, 0x75, 0x65, 0x6e, 0x74, 0x69, 0x61, 0x6c, 0x5f, 0x31,
  0x2f, 0x64, 0x65, 0x6e, 0x73, 0x65, 0x5f, 0x31, 0x2f, 0x4d, 0x61, 0x74,
  0x4d, 0x75, 0x6c, 0x3b, 0x73, 0x65, 0x71, 0x75, 0x65, 0x6e, 0x74, 0x69,
  0x61, 0x6c, 0x5f, 0x31, 0x2f, 0x64, 0x65, 0x6e, 0x73, 0x65, 0x5f, 0x31,
  0x2f, 0x52, 0x65, 0x6c, 0x75, 0x3b, 0x73, 0x65, 0x71, 0x75, 0x65, 0x6e,
  0x74, 0x69, 0x61, 0x6c, 0x5f, 0x31, 0x2f, 0x64, 0x65, 0x6e, 0x73, 0x65,
  0x5f, 0x31, 0x2f, 0x42, 0x69, 0x61, 0x73, 0x41, 0x64, 0x64, 0x00, 0x00,
  0x02, 0x00, 0x00, 0x00, 0x01, 0x00, 0x00, 0x00, 0x20, 0x00, 0x00, 0x00,
  0x7a, 0xfe, 0xff, 0xff, 0x00, 0x00, 0x00, 0x01, 0x10, 0x00, 0x00, 0x00,
  0x10, 0x00, 0x00, 0x00, 0x07, 0x00, 0x00, 0x00, 0x44, 0x00, 0x00, 0x00,
  0xd8, 0xfd, 0xff, 0xff, 0x36, 0x00, 0x00, 0x00, 0x73, 0x65, 0x71, 0x75,
  0x65, 0x6e, 0x74, 0x69, 0x61, 0x6c, 0x5f, 0x31, 0x2f, 0x64, 0x65, 0x6e,
  0x73, 0x65, 0x5f, 0x31, 0x2f, 0x52, 0x65, 0x6c, 0x75, 0x3b, 0x73, 0x65,
  0x71, 0x75, 0x65, 0x6e, 0x74, 0x69, 0x61, 0x6c, 0x5f, 0x31, 0x2f, 0x64,
  0x65, 0x6e, 0x73, 0x65, 0x5f, 0x31, 0x2f, 0x42, 0x69, 0x61, 0x73, 0x41,
  0x64, 0x64, 0x00, 0x00, 0x01, 0x00, 0x00, 0x00, 0x20, 0x00, 0x00, 0x00,
  0xda, 0xfe, 0xff, 0xff, 0x00, 0x00, 0x00, 0x01, 0x10, 0x00, 0x00, 0x00,
  0x10, 0x00, 0x00, 0x00, 0x06, 0x00, 0x00, 0x00, 0x28, 0x00, 0x00, 0x00,
  0x38, 0xfe, 0xff, 0xff, 0x1b, 0x00, 0x00, 0x00, 0x73, 0x65, 0x71, 0x75,
  0x65, 0x6e, 0x74, 0x69, 0x61, 0x6c, 0x5f, 0x31, 0x2f, 0x64, 0x65, 0x6e,
  0x73, 0x65, 0x5f, 0x31, 0x2f, 0x4d, 0x61, 0x74, 0x4d, 0x75, 0x6c, 0x00,
  0x02, 0x00, 0x00, 0x00, 0x20, 0x00, 0x00, 0x00, 0x01, 0x00, 0x00, 0x00,
  0x22, 0xff, 0xff, 0xff, 0x00, 0x00, 0x00, 0x01, 0x10, 0x00, 0x00, 0x00,
  0x10, 0x00, 0x00, 0x00, 0x05, 0x00, 0x00, 0x00, 0x2c, 0x00, 0x00, 0x00,
  0x80, 0xfe, 0xff, 0xff, 0x1d, 0x00, 0x00, 0x00, 0x73, 0x65, 0x71, 0x75,
  0x65, 0x6e, 0x74, 0x69, 0x61, 0x6c, 0x5f, 0x31, 0x2f, 0x64, 0x65, 0x6e,
  0x73, 0x65, 0x5f, 0x31, 0x5f, 0x32, 0x2f, 0x4d, 0x61, 0x74, 0x4d, 0x75,
  0x6c, 0x00, 0x00, 0x00, 0x02, 0x00, 0x00, 0x00, 0x20, 0x00, 0x00, 0x00,
  0x20, 0x00, 0x00, 0x00, 0x6e, 0xff, 0xff, 0xff, 0x00, 0x00, 0x00, 0x01,
  0x10, 0x00, 0x00, 0x00, 0x10, 0x00, 0x00, 0x00, 0x04, 0x00, 0x00, 0x00,
  0x2c, 0x00, 0x00, 0x00, 0xcc, 0xfe, 0xff, 0xff, 0x1d, 0x00, 0x00, 0x00,
  0x73, 0x65, 0x71, 0x75, 0x65, 0x6e, 0x74, 0x69, 0x61, 0x6c, 0x5f, 0x31,
  0x2f, 0x64, 0x65, 0x6e, 0x73, 0x65, 0x5f, 0x32, 0x5f, 0x31, 0x2f, 0x4d,
  0x61, 0x74, 0x4d, 0x75, 0x6c, 0x00, 0x00, 0x00, 0x02, 0x00, 0x00, 0x00,
  0x01, 0x00, 0x00, 0x00, 0x20, 0x00, 0x00, 0x00, 0xba, 0xff, 0xff, 0xff,
  0x00, 0x00, 0x00, 0x01, 0x10, 0x00, 0x00, 0x00, 0x10, 0x00, 0x00, 0x00,
  0x03, 0x00, 0x00, 0x00, 0x28, 0x00, 0x00, 0x00, 0x18, 0xff, 0xff, 0xff,
  0x1a, 0x00, 0x00, 0x00, 0x73, 0x65, 0x71, 0x75, 0x65, 0x6e, 0x74, 0x69,
  0x61, 0x6c, 0x5f, 0x31, 0x2f, 0x64, 0x65, 0x6e, 0x73, 0x65, 0x5f, 0x32,
  0x5f, 0x31, 0x2f, 0x41, 0x64, 0x64, 0x00, 0x00, 0x01, 0x00, 0x00, 0x00,
  0x01, 0x00, 0x00, 0x00, 0x00, 0x00, 0x16, 0x00, 0x18, 0x00, 0x14, 0x00,
  0x00, 0x00, 0x10, 0x00, 0x0c, 0x00, 0x08, 0x00, 0x00, 0x00, 0x00, 0x00,
  0x00, 0x00, 0x07, 0x00, 0x16, 0x00, 0x00, 0x00, 0x00, 0x00, 0x00, 0x01,
  0x10, 0x00, 0x00, 0x00, 0x10, 0x00, 0x00, 0x00, 0x02, 0x00, 0x00, 0x00,
  0x48, 0x00, 0x00, 0x00, 0x74, 0xff, 0xff, 0xff, 0x3a, 0x00, 0x00, 0x00,
  0x73, 0x65, 0x71, 0x75, 0x65, 0x6e, 0x74, 0x69, 0x61, 0x6c, 0x5f, 0x31,
  0x2f, 0x64, 0x65, 0x6e, 0x73, 0x65, 0x5f, 0x31, 0x5f, 0x32, 0x2f, 0x52,
  0x65, 0x6c, 0x75, 0x3b, 0x73, 0x65, 0x71, 0x75, 0x65, 0x6e, 0x74, 0x69,
  0x61, 0x6c, 0x5f, 0x31, 0x2f, 0x64, 0x65, 0x6e, 0x73, 0x65, 0x5f, 0x31,
  0x5f, 0x32, 0x2f, 0x42, 0x69, 0x61, 0x73, 0x41, 0x64, 0x64, 0x00, 0x00,
  0x01, 0x00, 0x00, 0x00, 0x20, 0x00, 0x00, 0x00, 0x00, 0x00, 0x16, 0x00,
  0x1c, 0x00, 0x18, 0x00, 0x00, 0x00, 0x14, 0x00, 0x10, 0x00, 0x0c, 0x00,
  0x00, 0x00, 0x00, 0x00, 0x08, 0x00, 0x07, 0x00, 0x16, 0x00, 0x00, 0x00,
  0x00, 0x00, 0x00, 0x01, 0x14, 0x00, 0x00, 0x00, 0x20, 0x00, 0x00, 0x00,
  0x20, 0x00, 0x00, 0x00, 0x01, 0x00, 0x00, 0x00, 0x3c, 0x00, 0x00, 0x00,
  0x02, 0x00, 0x00, 0x00, 0xff, 0xff, 0xff, 0xff, 0x01, 0x00, 0x00, 0x00,
  0x04, 0x00, 0x04, 0x00, 0x04, 0x00, 0x00, 0x00, 0x1e, 0x00, 0x00, 0x00,
  0x73, 0x65, 0x72, 0x76, 0x69, 0x6e, 0x67, 0x5f, 0x64, 0x65, 0x66, 0x61,
  0x75, 0x6c, 0x74, 0x5f, 0x6b, 0x65, 0x72, 0x61, 0x73, 0x5f, 0x74, 0x65,
  0x6e, 0x73, 0x6f, 0x72, 0x3a, 0x30, 0x00, 0x00, 0x02, 0x00, 0x00, 0x00,
  0x01, 0x00, 0x00, 0x00, 0x01, 0x00, 0x00, 0x00, 0x01, 0x00, 0x00, 0x00,
  0x10, 0x00, 0x00, 0x00, 0x0c, 0x00, 0x0c, 0x00, 0x0b, 0x00, 0x00, 0x00,
  0x00, 0x00, 0x04, 0x00, 0x0c, 0x00, 0x00, 0x00, 0x09, 0x00, 0x00, 0x00,
  0x00, 0x00, 0x00, 0x09
};
unsigned int sine_model_tflite_len = 6580;
